0000000000000110
0000001011111101
0000001011111011
1111111000000001
1111110100000010
1111010000000010
0000001100000000
0000100000000001
1111111000000010
0000000100000011
0000000111111100
0000001011111110
0000011011111111
1110111111111110
1001101111111111
1111101011111111
1111111100000010
1111110000000001
1111111111001100
1111011111011101
1110001111110010
1111000011111100
1110111111111111
1110100100000011
1100011000000010
1110001011110011
1011110111010111
1110001111100101
1110100011100010
1110000111001011
1110101011100101
1111011111111000
1111101000000001
1000000111111111
1110010100000010
1110111111111110
1111010111110110
1111001111100110
1110011111111001
1111011000010001
0001010100000010
1111100100000001
1111001000000011
0000000011111111
1111110011111001
1111100011111010
1111101011111100
1111110100000010
1111111111111010
1111111100000001
1111111000000010
0000001000000010
0000011111111110
0000001000000000
1101111100000000
1110111100000010
0000010011111011
0000010011111111
0000000100000100
0000000000000011
1111110100000010
0000000100000010
1110011000000100
1110001100000000
0000010111111100
0000010011110000
0000011011110000
1101111111011110
1110010011101111
1111010100000011
1111111100000000
1111011100000011
0000001000000000
0000010000000000
1101111100000100
1111011000001010
1110010000011000
1111110111100000
1111101011100010
1111011011110100
0000000000000000
1100111000000001
1101010100000011
1101101011111111
1110000011111001
1111110011110100
1111110011001000
0000001100000010
0000110000000011
1111101011111110
1111000011111110
1101101111111111
1110010100000100
1110001100000110
1111100111100011
1111111111111010
0000001011111101
1111110000000010
1111110011111100
1111111011111101
1111010100000000
1111110111111111
0000001100000000
1111011011111110
0000001011111111
1111111000000001
1111111100000010
0000000011111101
0000001111111111
0000101011111111
0000100000000010
1111100000000000
0000001011110111
0000000000000010
0000000100000110
0000000100001001
0000011100000110
0000010100000000
1111101011111111
1111000100000000
0000000111111100
1111111011101100
1111111000000010
0000001000000000
1111000011110110
1110100111101010
1110101111111000
1111000100000000
1110001011111111
1110010011111101
0000000000000001
1110111111111001
1110101011001110
1111000111001000
1110111111000100
1111000011110101
1110111000000011
0000101111111000
0000000011111111
1110011011111110
1101101111101110
1110001111100001
1111100011010111
0000000011100100
0000000100000001
0000000111111101
1111111100000000
0000010111111110
0000010011111101
0000100111111110
0000110011111111
1111000000000001
0000000011111011
1111111111111101
1111101000000010
0000000011111111
0000001011111110
0000011100000001
0000010000000001
1101110100000001
1111111111110100
0000000000000000
1111101000000010
1111101100000010
0000010100000010
0000010000000010
0000010000000001
0000001011111111
1111111111111101
1111111100000100
1111110000001000
1110100011110100
0000001011110101
0000001111111100
0000001111111110
0000001111110100
1110110011111111
1111000111111110
1100101000000001
1110100011111111
1111101011111100
1111111011111100
0000000011111010
0000000111101001
1110001011111100
1111010111111101
1111000000000010
1111000100000000
1110110100000000
1111011111111000
1111101011110000
0000000111101100
0000000100000001
0000000100000101
0000000011111110
1111111011111110
1111110011111111
1111110000000001
1111111000000000
0000000100000000
0000001011111101
0000001000000000
0000000011111110
0000000000000100
1111111100000010
1111011100000011
1111110000000000
1111111011111111
0000000111111110
0000001111110100
0000001100000001
0000010000001101
1101011100000111
1110000000000010
1101011111111010
1111001011111111
1111101111111111
0000001111110111
1111001000000010
1110001011110000
1110101011100010
1111000111011110
1110010111110101
1111100011110000
1110011111111111
1011010000000010
1101100000000101
1111000000000011
1111011011111101
1111001011110101
1110011100000010
1111101000000001
0000110111111101
0000011000000001
1111001100000000
1110011011111100
1110100100000011
1101111111101010
1111101011111100
1111110100000111
0000001111110101
1111110111111100
0000001100000010
0000001111111111
0000001100000001
0000000100000001
1111011100000000
1110010000000001
0000001011110101
0000000011111011
0000001100000000
0000010011111010
0000010111111101
0000010111111111
1110000000000001
1111011100000000
0000001111101101
0000010011111100
0000001011110101
0000010111111111
0000001111111000
1111110000000011
1111010000000110
1111101100000001
0000011011111010
0000100100000010
0000100000000111
1111110100000001
1111111011110101
1111110100000010
1111100100000011
1111011000000101
1111110100000000
1111111100000000
1101001000000100
1101100000000010
1111001011110101
1111101111110111
1111100011011110
1111101011111010
0000110000000011
1111111111111110
1111101011111100
1101111111111001
1110010100000001
1111001100000101
1111111011110101
1111110000001001
1111100111111001
1111110111110111
0000000100000011
0000001000000010
0000010011111111
0000100011111100
0000010011111011
0000001111111001
1110110111110100
1110101100000011
1111110111110100
0000000011011110
1111110011101001
1110111111011000
0000000111010011
1111110011100000
1101111000000001
1111100011111001
1111101111110011
1111011011101100
1111110011100011
1111110011100101
1111111011011011
0000010111011100
1111011011111100
1111101011111111
1111111111111111
0000001011110010
0000001011101110
0000010011100111
0000000111100010
1111111011100011
1111110111101010
1111011011111011
0000000011111000
0000000111110101
0000001011110100
0000000111111001
0000010111101111
1111001011101100
0000001111100110
0000001011111111
0000001111111110
0000011100000010
0000010000000011
0000010100000101
0000001100001011
1111011011101100
1111011111110010
1111101111111111
1111111111111110
0000011000000000
0000011111111100
0000000011110101
1111000111110110
1111111111110111
1110000111111001
1110100011101111
0000010011111000
0000000111111110
0000010111111000
1111001111111011
1111010011100001
1111001111011000
1110100111111100
1110101111111100
1111100111111010
1110100111110011
1111011111011110
0000000011011011
1111110011011011
1111000011110100
1111101011110101
1110101111111011
1111010111110110
1111101011111000
1111101011100011
1111011111001000
1111011111100010
1110001000001001
1111111111010000
1111000111111001
1111101111110101
1111110111110011
1111111111111000
0000000011101011
0000001011010111
1110011000001000
0000111111001101
1111111011111110
1111111000000000
0000010000000000
0000001100000001
0000010100000010
0000001111010100
1111011011111100
0000000111101011
0000001011110001
0000000111111101
0000000111111111
1111111100000001
1111100111111111
1101011011111101
1101111011111100
0000001011111001
0000000111110000
0000000100000101
0000001000000000
0000001000000010
1110101111111111
1111110000000000
1111111011111111
0000000011111101
1111110111111001
0000000100000001
1111111011110001
1111001111110111
1110001111111100
0000010011111011
1111110000000010
0000000011111011
0000001011111000
0000001100000010
0000001111111010
1111011000000100
0000010000000011
1111011000000100
1111010100000011
0000011000000000
0000100011111111
0000001011111011
1111110011110111
0000001111111011
0000001000000001
1111111100000100
1111101100000000
1111001100000001
0000101100000000
1110101011111101
1111010011111001
1111110111111101
0000000111111011
0000000011101110
0000001000001011
1111111000000011
1111111011110001
0000000011111111
0000001100000001
0000000100000001
1111111011111100
1111001011111101
1110010011111110
1111111011110010
1111011111011001
1111110111100100
1111111011110110
1111111011110100
1110110111101111
1111111011110011
1111010011111101
1111010000000001
1110111111110110
1110111111111000
1111001111110001
1111011111110001
1111101011101101
1111011011100000
1111100111101100
1111001111111100
1111111111111110
1111111111111001
0000000111110111
0000001011111011
1111101100000001
1110011011111101
1111011100000000
1111110011111101
0000101011111100
0000100011111101
0000011011111001
0000010011111100
0000001111111010
1110101000000100
1111100000000001
1111101111111001
0000010011111010
1111111011111111
0000011011111110
0000001100000001
0000010111111101
1111111111100110
1111011111111000
1111110111111110
1111110000000010
1111110100000011
1111111000000000
0000000000000000
1111101000000001
1110111000000000
1111110000000001
0000000011111111
1111111100000001
1111111100000010
1111110000000001
1111101000000010
1111001000000000
1111100000000011
1111110100000010
1111111011111101
1111111011111111
1111101011111110
1111110111111101
1110001111111110
1111100011111110
1111010000000000
1111101111111110
1111100011111010
1111100011111011
1111100011110101
0000001011111001
0000000111111110
0000001011111010
0000000100000000
0000001000000000
1111010100000010
1111111011111111
1111010111111011
1111101011111111
0000011000000100
0000001100001000
0000010011111110
0000010111100000
1011111111111111
1110101000000000
1111101100000010
1111100100000011
0000001000000100
0000001000000011
1111111011111010
0000000111110110
0000001011110111
0000010011011010
0000010011110010
0000000111111000
0000001111111111
0000100100000000
0000110111111111
1111011111111010
0000000011111011
1111111011101001
1111101111111100
1111110111111110
1111111111111101
0000011111111110
0000100111111110
1111001000000011
1111111011101100
1111111111111110
1111110000000001
1111110000000011
1111011000000010
0000000100000011
0000010000000011
1111110000000001
1111111011111011
0000000100000001
1111101000000100
1101111111110101
0000000111110110
0000001111111011
0000001100000000
0000011111111011
1110011011111100
1111100111111101
1110111011111100
1110010011110011
1111101111110111
0000000111111010
0000001000000100
0000010111011101
1110010111111011
1111010011111100
1111111011111101
1111111111111010
1111011100000000
1111011100000000
1111110100001001
0000000111101100
1111111100000100
0000000000000010
1111111100000001
1111101100000010
1111110000000010
0000000000000010
1110100100000001
1111101100000000
1111111100000010
0000000100000000
0000000000000001
1111111100000011
0000001100000010
1111101000000010
1110110100000001
0000100111111111
1111100100000011
0000000111110101
0000001011011111
1111111100000101
1111001011111111
1111011011111101
1110011011111101
1111101111111101
1111000011111111
1111010111110101
1110000100000001
1110111000010010
1111001011111111
1111101011000101
1110110111001010
1111011011101011
1111101011111110
1111011111111100
1101110100000001
1111010111111111
1111010111111010
1111010100000000
1111000011110111
1111011111101101
1110010011111101
1110100100000000
1111110100000001
1111100100000000
1111011111110111
1111010111100101
1111111111101101
1111111111101111
0000000011111111
0000000011111001
1111111111111111
1111110100000000
1110011000000010
1100000100000001
0000001011111111
0000011011111111
0000000100000100
0000001000000001
0000001011111110
0000000100000011
1101110000000010
1110100100000011
0000101000000010
0000011100000000
1111110000000001
1111111100000001
0000000111111011
0000011011111011
1110010000000011
1111110111111101
1111111011111011
0000010100000000
1111100011111100
1111010111100001
1111011000000000
1110110100010011
1111101011100000
1111011111000000
1111010111001001
1111011111110001
0000101011111110
1111110100000011
1110110100000011
1110001100000111
1111101100000111
1111111011110011
1111111111111001
1111100111111001
1110111111111111
1111001000000010
1111101000000010
1111000011111111
1111011111111001
1111110011101010
1111111111111000
0000000011101011
0000001111111010
0000000000000011
1111111111111101
1111111111111111
1111100000000010
1110111100000010
1111100100000010
0000011100000010
0000001011111100
0000000011111101
0000000111111110
0000001100000010
0000001100000001
0000001100000001
0000010100000010
1111111111111111
0000000100000000
0000000011111010
0000000111101110
1111111011111101
0000011100000001
0000010011111110
1111110111111110
1111100000000001
0000001000000100
1111110111111110
1111100111110001
1111010011110011
1111110011011101
0000000011011110
1111101111111011
1111011100000110
0000010100000001
1111100111111110
1111100000000001
1111001100000110
1110111011100110
1111101011010001
1111100000000110
1111001100000010
1111010100000001
1110100000000010
0000011111111110
1111011111111100
1110011111110101
1110111111110111
1111101011111001
0000000111111011
1111100011111011
1111101111110110
1111111111111110
0000001011111011
1111111111111001
0000000111110011
1111100111110111
1111111111111000
1111101011111010
1111101111101001
1111111111000000
1111111011110110
1111111011110110
1111011011111001
1111001011110101
1111111011111010
0000000111111110
1111111111011111
0000000111011011
0000000011101001
1111111000000000
0000001100000000
0000010011110111
0000001011111101
0000001011110111
1111110111110110
0000001011110101
0000011011111110
0000001111111011
0000001111110111
0000001111110000
0000010111111011
1111111111111100
0000000111111110
0000000011110111
0000001011111101
0000010000000000
0000010111111110
0000010100000101
0000100011111010
0000000111111000
1111111100000011
0000001111111101
0000011011111111
0000001100000000
0000010100001001
0000010100011000
1111110011011111
0000000011110101
1111101111110010
1111110111111001
0000000011111011
0000001011111110
1111110011111010
1111111011110101
0000001011110101
1111101111111101
1111010111101100
1111100111111000
0000000111111010
1111011111111111
1111100011111100
0000010011111000
0000000011110111
0000000011111011
1111101000000100
1111010011111101
1111101111111001
1111101011111011
0000000111111111
0000001111111100
0000101111111011
0000010011111011
0000000011111101
1111110011111000
0000000011110101
0000001011111110
0000001000000001
0000001000000101
0000011000000110
0000100111111001
0000000000000001
1111111011111011
0000000011111010
0000001111111000
0000001111111101
0000010100001100
0000010100001001
0000011011111001
1111100111111111
0000000100000010
0000001111111101
0000001111111010
0000010011111101
0000010000000011
1111110111111100
1111111111111100
1111111011111111
0000000000000001
0000001111111101
0000000111111101
1111111111111111
1110011100000001
1111110000000010
0000000011111110
1111111011111111
0000001100000001
0000000111111111
0000000000000000
0000000000000001
1111101100000011
1110110100000010
0000000111110111
0000000000000011
1111111100000011
0000010000000001
1110110100000001
0000000000000011
0000001100000101
0000000000000010
0000000111111111
0000000100000101
1111100000000100
1111111100001100
0000000011111110
0000001100001010
0000000100001010
0000010111111110
1111010100000011
1101100000000001
1110111100000000
0000000011111111
1111101000000100
1111111000000101
0000000011111110
0000000011111111
1110101000000001
1110100111111001
0000001011111011
1111111100000100
1111110000000100
1111101100000101
1111100100001110
0000000100000110
1111111100000000
0000000111111001
0000000011111101
0000000000000000
0000000000000001
1101101100000001
0000000100000001
0000011000000000
0000000000000101
0000000100000001
0000000111111110
0000000000000010
0000100000000010
1111111000000011
1111100000000010
1111011000000001
1111110100000100
1111110100000010
0000000011111011
0000001000000010
0000010000000001
1110000100000001
1111010100000000
1111010000000010
1111000100000000
1111001011111011
1111111111110100
0000100011111111
1110101111100101
1111011111000111
1111001111011110
1111011111111001
1111101000000001
1111001111111100
1100101100000100
1110000000000001
1111001000000011
1111100111011000
1111100111111111
1111011111111011
1111001100000000
0001000000000000
0000001011111111
1111011011111101
1111011111111011
1111011111101001
0000000000000110
0000001100000001
0000000000000110
0000001011110111
0000000111111110
0000000000000001
1111110000000010
1101000100000001
0000101100000001
0000110000000000
1111111100000100
0000000111111110
1111111111111110
0000001000000001
1111100100000010
1110111100000001
0000000000000001
0000010000000000
1111101100000000
0000000000000010
0000001011110100
1111110011110000
1111101111111101
1110101100000110
1111001111111111
1110111111111111
1111001111111101
1111010011111000
1110000111110000
1111000111101111
1110101111011001
1101100111010100
1111001010110110
1111011011111001
1111101111111110
1111010111110101
1111011011111010
1111101011111100
1111101011110011
1111000111101100
1110000011110000
1111111111111001
0000010011111101
0000011000000000
0000001000000000
1111101111111111
1111010011110111
1111011011101011
1111110111110010
0000000111101001
1111111111111110
0000001011111101
1111111100000000
0000001000000000
0000001111111110
0000011011111111
1111110100000001
1111100000000001
0000001000000000
0000000100000000
0000000000000010
1111110100000001
0000000100000001
1111100000000011
1111010000000011
1111111000000010
0000001111111011
0000010000000101
0000001111111101
0000001111111111
0000010000000000
0000010100000010
0000010000000011
0000001100000001
1111110111111111
0000100100000101
0000011100001001
1111011100001011
1111110111110110
0000001100000011
0000001000000001
0000001111101000
1111100000000011
0000011100000000
1111111100000011
0000010000000011
0000001000000100
0000001000000011
0000001111110101
0000011011110100
1111011000000001
1111010011111001
1111101111111110
0000010011111111
1111010100000010
1111101100000110
1111111000000000
0000000111110000
0000001011111110
1111111100000011
1111110100000011
1111111011111111
0000001011111101
0000000011111101
1111101100000000
1111010000000100
0000000000000000
1111111111111111
1111111100000001
1111111111111111
1111111000000000
1111110011111111
1111101000000000
1111110100000000
0000000111111001
1111101000000001
1111100111111111
1111000011110110
1111110111111100
1111110111111111
0000000000000000
1111110011111111
1111111000000010
1111101111111011
1111010011111011
1111101100000100
0000000100000101
0000001000000100
1111111111111101
0000000100000000
1111011000000011
1111111011111100
1111101111111100
1111111100000001
0000010000000100
0000001000000110
0000001111111110
0000000111110111
1110100011111101
1111001111111101
0000100000000010
0000000000000000
1111111100000010
0000001000000011
0000000111111100
0000001100000011
0000001111111101
1111110000000110
1111110000000011
1111110000000001
1111100011111111
1110111011111110
1110101000000000
1111001000000100
1111111111111110
1111111000000001
1111111100000010
1111111000000000
1111010000000000
1111000111111110
1111010100000010
1110110011111111
0000000011111111
1111100011111010
1111011100000010
1111001011100011
0000000011110011
1111101111111010
1111100000000000
1111110100000010
1111011100000110
1110110011111000
1110101011101111
0000000011111100
1111111000000000
1111111011111011
1111101111110001
0000000000000101
1111101000000100
1111100011111000
1110111111111010
0000011011111010
0000001000000000
0000000000000000
0000000100000011
1111101011101101
1111001011111100
0000000011111011
1111011000000011
1111111000000100
0000011000001000
0000010100000000
0000001011110011
0000000111110010
1111111100000011
1111011100000101
1111101100000100
1111100000000000
1111010100000000
1111011111111101
0000100100000001
0000100100000010
1111101100000000
1111110000000011
1111111000000000
1111110100000001
1111111100000000
1111101011111110
0000010011111111
0000011100000000
1111111011111111
1111111011111011
1111111011111001
1111111111111101
0000000000000000
0000011000000000
0000011111111101
0000101011110110
1111110100000101
1111111000000100
0000000111111011
1111111011111111
0000000000000000
0000010000000100
0000010000000010
0000100000000101
0000001111111111
0000010111111111
1111101111111101
0000000000000010
0000000000000110
0000001000000001
0000010000000001
0000100100001010
0000000011110110
1111111111111111
0000001000000001
1111101000000010
1111101000000011
1111111100000110
0000010011111110
0000000111101111
0000001000000001
0000000111110100
1111110111111001
1111110011111101
1111101111111111
1111101100000001
1111110000000000
1101011011111110
0000001111111010
0000000011110100
0000000011101011
1111101111110000
1111101011111101
0000010111111000
0000010111111010
1111011011111110
1111111111110001
1111110011111001
0000000000001000
1111110011110000
1111011111111010
0000010011110101
1111101011111011
1111111100000001
0000000011111101
1111111011011110
0000000011110101
0000000011101111
1110001100000100
1110101000000010
1100101000000100
1111010111111111
0000011011111101
0000100011111001
0000011111100000
0000001011101110
0000000111110110
1111110111111011
1111011100000000
1110101100000111
0000000111111100
0001000111111110
0000010111111011
0000001111111010
0000001111111101
0000001011110011
0000001100000100
1111111100010010
0000000111111011
1111101100000000
0000000111111111
0000000011111101
0000010011111101
0000001011111101
1111100011111111
1110010000000000
0000001011110010
1111100111111110
1111111111111100
0000000111111001
0000001011111010
1111111111111100
1111111011111101
1110001011111110
0000001011111100
1111111111110101
1111111011110101
0000001011111010
0000010000000000
0000000100000010
0000000100000010
0000011011111010
0000011000000110
0000001000000000
0000001011110000
0000100011111010
0000010000001101
0000010100010001
0000001100000111
0000011100000110
0000101100000000
0000100111111111
0000010111111100
0000001011111111
0000010000000101
0000001100001001
0000010100000011
0000011000001110
0000001011111010
1111110111111110
1111110011111101
1111110011111011
0000011100000010
0000000100000100
0000010100001110
0000000000011010
1111111100001100
0000001111111010
0000000011111100
1111101011110101
1111111111111000
0000010111111011
0000100011111010
1111111111111000
1111110000000010
1111111111111101
1111110011110111
1111111111110101
1111110111111000
0000010011110101
0000100111111001
0000011011111101
1111111011111010
1111101011110110
1111111111111011
1111111111110010
0000001111110111
0000001111111101
0000010011111010
0000010111111101
0000011011111100
0000000111110110
1111111011111111
0000010111111011
0000010000000000
0000000100000011
0000010000001101
0000010100001010
0000011011111100
0000100011111010
0000010011110101
0000000100000110
0000000111111000
0000010011111011
0000010000000001
0000010100001001
0000110111111011
0000100011111110
1111111111111011
0000001000000001
0000000111111101
1111110100000100
1111110100000110
1111010000010011
