0000001111110111
1101011110101001
1101110100000000
1111001011111101
1111101100000011
1110101100000011
1110011111101001
0000001011111111
0000000011110001
1111101110001111
0000000111110010
0000000111101111
1111111000000100
1111110111101100
1111011011110111
0000001111111111
1111010111001110
1111111011011011
1111111111010101
1111111000001010
1111111000001101
1111101000001011
1111100100000010
0000001011111111
1111000100000010
1111100111110101
0000010011001011
1111110100000010
1111111111111110
1111001000000110
1111011000000010
0000010011111001
1101111000000011
1111011011111010
1111011011111101
1110110011111111
1110111100000010
1110010000000010
1111010100000010
0000101000000111
1111111011111011
1111011011111101
1110100011111101
1110001000000000
1111100000000000
0000001000000000
1111111100000000
1111111000001011
0000001011101000
0000000111011010
1111101111111110
1111100100001000
1111001111101110
1111111111111011
0000000100001001
0000001111111010
1111101111011001
1111111111101010
1110110011110011
1111001111101000
1110100011100001
1111000011111011
1111101011110101
1111110011111100
1111110011111101
1111100111110010
1111100111101111
1111101011110100
1111010011111110
1111101011110100
1111110100000000
1111101011111111
1111100111110111
1111011011111000
1110111100000101
1110110100001000
1111010000001001
1111011111111101
1111110111111100
0000000111111101
1111000011111101
1111000111111110
1111110000000100
1111111100000100
1111011100000100
1111000111111111
1111101100000001
1111110011111111
0000000100000001
1111111100000001
1111001100000010
1111101000000010
1111111100000001
0000001111111111
1111110100000000
0000000111111111
1110111011110101
0000101111110100
0000010111101101
0000011000000010
0000100000001101
0000010000000010
0000101000000011
1111101100000010
1111110111100101
0000010011110110
0000100111110110
0000011011101000
0000010100000100
0000011100000111
0000100111111111
0000001011111100
1111011011011101
0000000111011111
0000010111011100
0000010111100001
0000001011100001
0000000011111010
0000001100000000
1111111111111110
1111101011101101
1111110011011000
1111011111011011
1111100011011001
1111100111011000
1111001111110111
0000000100000000
0000010011111011
1111110011111010
1111101100000001
1111100111111101
1111010011111110
1111101100000010
1111100100000010
1111010011111101
1111011111111101
1111110011110111
1110100111111011
1110101111111111
1110011100000001
1111010000000000
1111101111111101
1111110111111100
1111111111110110
0000001111100001
0000000100000010
1111101000000000
1111101100000110
1111010000000001
1111101111110000
0000001000000101
0000010111111111
0000000111010101
1111111110111010
1111100111011111
1111001111101110
1111111111101001
0000001111111101
1111101100000111
0000000011111111
0000011000011111
0000001000011000
0000000111101101
0000001011100001
0000000111110011
0000001111111111
0000000100000001
1111010111111101
0000010100000000
0000001100000111
0000001000000110
0000000111111110
0000000100000001
0000001000000000
1111111100000000
0000000111110111
0000000011110101
1111111111111110
1111110111111101
1111110111111100
1111111111111011
1111110111111101
1111100111111110
1111100100000010
1111101111101000
1110011111111110
1111010111111110
1110010011111111
1111100011111111
1111101011111111
0000000011111001
0000011111111001
1111101111110000
0000001111101100
0000000011110011
0000001011111101
0000001000000001
0000100100001001
1111110011111111
0000000111111110
1111110111110110
1111010111101001
1111011011100101
1111100000000011
1111110000000011
0000001100001000
1111111111111101
0000000011111101
1111011111001111
1111000011100011
1111001111101100
1110111111101111
1101110111111011
1111101000000110
1111111000000101
1111111111111111
1111001000000011
1111010011111100
1111110011110100
1111011000000010
1110101000000000
1110111000000100
1111101100000011
1111111100000001
1110101000000010
1110010011111101
1111011100000011
1111111100000101
1110110000000100
1101111100000000
1111101000000001
0000001000000001
1111111111111010
1111101111111110
1111001100000001
1111011000000010
1111110100000010
1111110111111110
0000001011111100
0000100000000111
0000001011101011
1111111111111110
1111110100010000
1111100000000011
1111101100000111
1111101011100110
0000000000001000
1111100111111010
1111110011010111
1111111010111010
1111101000000010
1111110100001011
1111101000000101
1111111000001011
1111110000001100
1111111111111010
1111111111100101
1111111011011100
1111110111110100
0000000111110011
1111111000001010
1111110100000110
1111101000001010
1111011111111111
0000001111101101
0000000100000001
1111110100000101
1111100000000010
1111110100000101
0000000011111101
1111111111111100
1111001111111011
0000000011111110
1111111011111110
1111010100000010
1110110100000011
1111110100000011
1111110011111110
0000000000000000
1110100011111100
1111110011111101
1111100100000011
1111101100000000
1111110000000001
1111101000000000
1111101111111111
1111110100000001
1111111011111011
0000001011111111
0000000000000101
0000000111101100
0000001011110010
0000000111110001
0000010011110111
0000001111111101
1111110000000000
0000000011110111
1111100000000101
1111010000011001
1111010000001100
1111110100000011
1111100100000000
0000010100000000
1110111100000001
1110111111111100
1111010000001001
1111110100010011
0000000011111110
0000000000000111
1111110100000001
0000000011111111
1110011100000101
1111011100000110
1111001100000001
0000000000000001
0000000000000011
1111111000000001
1111101000000000
1111000100000111
1111000000000111
1111101011110110
0000100000000111
1111010011111111
1111100000000001
1111111100000010
0000001100000000
0001000111111001
0000011111111110
1111110000000001
1111100011101101
1111101011110011
1111111011111101
1111001000000100
1111101111111111
1111100011111101
1111101011111100
0000001011110000
0000001011111101
0000010011101111
0000001011111010
0000000000000010
0000010000010000
0000001100010010
1111110000000101
1111111111111011
1111100111100111
1110110111011111
1111011111100111
1111100011111010
0000001111111101
1111111100000000
1111000100000001
1111010100000011
0000000011101010
1110111111100011
1111101011101100
1111110111110100
1111100111111110
1111111000000010
1111100100000101
1111100111100111
1110100111110100
1110001011110001
1110111111100000
1111000111111011
1110111111111000
1111111111111100
1111110000000001
1110100111101111
1110101111110101
1111001111111001
1111011000000101
1111101000000010
1111000000000010
1111110011111111
1111100000000100
1111111011100100
1111010011111001
1111111011111001
1111011011111101
1110100000000011
1111010000000011
1111010100000011
1111110011101011
1111001011101111
1111001111100001
1111110100000010
1111101011111011
1111101011111100
1111110011110111
1111101011111110
1111101011111000
0000000000001000
1111010111111111
1111100011110011
1111101100000001
1111111000001000
1111101111111111
1111110000010001
1111111111111101
0000000000000101
1111011100001111
1111101011011010
1111110000000000
1111100100001111
1111111000000100
0000000000000101
0000001011111011
1111101111100111
0000001111110110
0000001011010000
0000001011100111
0000000011111110
1111111011111001
0000000011110111
0000001000000001
0000001111111111
0000010100000000
0000010000000110
0000010000000101
0000010000000100
0000000111111111
0000010111111101
1111111011111110
0000000000000101
0000001100000001
0000011100000010
0000011100000100
0000010100000011
0000001100000001
0000000011111111
0000011100000001
1111100111110001
0000000111101101
1111111000001110
1111101100000011
1111110011110110
1111101111101010
0000001000000011
1111110100000010
1111011011110110
1111011111111011
1111101011100011
1111101011111111
1111110000001000
1111000100000100
1111111100000101
1111101000000010
0000001011111010
1111011100001100
1111011011100111
1111100000001110
1111101000000111
1111010111111110
0000000011110110
1111101011111000
1111100000000000
1111011111101101
0000000011011001
0000001011110111
1111111111111100
1111100011111010
0000001111111110
0000001000000110
1111001000001001
0000001111111100
0000010111111001
0000010011111010
0000010000000000
1111111011111100
0000000111111111
0000100100000111
0000000011110000
0000010000000000
0000100011111111
0000011100000001
0000010100000001
0000000000000000
1111110100000100
1110111011111101
1111001111111011
1110111111101111
1111110011110000
1111111111111011
1111000011110111
1111111011111111
1111011100000010
1111111100000001
0000001111111111
0000000111010011
0000000011101001
1111010111110000
0000001011111110
0000000111111100
1111101100000001
1111111000000010
0000011011100101
0000001111100011
0000000111101110
0000000111101101
0000001111011011
0000010000000100
0000001011111100
1111110100000001
0000010011110110
0000010000000100
0000001100000100
0000001000000101
0000001111111000
0000010011111100
0000000011111101
1111101011110011
0000010000000101
0000010100000011
0000010000000001
0000010000000001
0000010011111111
0000001000000000
1111111000000010
1111001111111101
1111110100000101
0000010100000001
0000010000000000
0000000111111110
0000010111111110
1111111100000001
1111110000000010
1111110111111101
1111111011111001
0000010111011111
0000010011111101
0000010000000110
0000100100000101
0000100000000010
0000001011110001
1111001111110101
1111100111100000
1111111111100100
0000001011111100
0000000100000001
0000010100000001
0000000100000010
1111111011111100
1111110111111101
0000010100000011
0000001100000111
0000001111111001
0000001111100100
0000001111110111
0000001111111010
0000000011110110
1111101011111100
0000010011111100
0000001000000110
0000001100000011
0000001000000100
0000000100000010
0000001011111101
1111111111111111
1111011100000010
0000000111111010
0000000111111011
1111110111111100
1111110111111001
0000000111111100
0000001011111010
1111110111111011
1110011011111111
1111011111110101
1101101111101111
1110011111111001
1111011011111001
1111100111111011
1111001011110110
1111110011111100
1111011111100111
1111110000000001
1110110011000111
1111100111110111
1111110111111111
1111110100000011
0000000000000101
0000001011111101
0000001100000100
0000000000001110
1101111111001111
1111001011100010
1111100000001101
1111100000000000
1111110100000111
1111101011111000
0000001100000000
1111101011110110
1110111111111110
1111011111101100
1111100011101110
1111001011110100
1111010000000000
1111101011110110
0000010111111110
1111001111111100
1111011111110011
1111000011111111
1111100011101110
1111010000000010
1111010000000000
1111110000000010
0000101011111100
1110000100000100
1101110111111100
1110000011111110
1110111011111110
1110001000000000
1110111100000010
1111100100000010
0000011000000100
1111110100000011
1111110011111111
1111100111111110
1111100000000000
0000001000000000
1111110000000001
0000000100000011
1111111000000011
0000001000000011
1101110100010101
1111001011010111
1111100111111011
1111110000000010
1111011011111011
1111100111110010
0000000011111111
0000001100000101
1111000000101100
1111010011011110
1111110011110001
1111011111111111
1111011100000101
1111001111101010
0000010100000000
1111101011011111
1111011011101011
1111100111111011
1111101111110011
1111010111101011
1111011111111000
1111101111001100
0000001100000000
1111001111101111
1111010111110001
1111011011111000
1110101111100100
1111010000000000
1111000111111010
1111101111111010
0000001111110010
1110011100000010
1111010100000001
1111001000000101
1110001100000000
1111000100000011
1111000000000000
1111110011111110
0000011000000001
1111110100001001
1111100000000010
1111100011111111
1111010100000001
1111001000000001
1111101100000010
1111111000000101
1110111000001000
1111111111011011
1101110111001101
1111100011111111
0000001111101110
0000001100000010
1111111111110111
1111101011110001
1111110111111100
1111111011111101
1111111100001010
0000100100001011
0000011000000101
0000001100000001
0000001011101111
0000000011111000
1111111111111011
1111010111110011
0000000011011101
0000010111110111
0000010111110100
0000011011101001
1111111011100101
1111111111011001
1111111100000000
1111011100000010
1111011111111000
1111110111011011
0000000111110001
1111101011111110
1111000100000100
1111111111111110
0000000111111101
1111001100000000
1111001111111110
1110110011111110
1110010100000011
1111011100000011
1110100000000000
1111111011111110
1111110111111101
1111011000000100
1111001000000001
1111000011111111
1110111000000000
1111111000000000
1111001100000001
1111101000000001
1111010111111111
0000001111011000
0000001011110110
1111111011110001
1111111111010111
1111110111110110
0000001111111010
0000010011101000
1111100100000001
1111111000000001
1110111011111011
1111000011011111
1111010111010011
1111100111110101
0000001111110101
0000001111110110
1110101111110110
0000000100001010
1111110111111111
1111011111111110
1111111000000001
1111110011111011
1111110111111011
0000001000000111
1111001000000000
0000011111111100
1111110111111011
1111110100000010
1111110011111101
1111111000000001
0000010011111101
0000010100000101
1111111100000101
0000010011111111
1111110100000010
1111100100000000
1111101011111010
1111110000000011
0000000111111110
0000000011111110
0000100111111110
1111111000001101
0000001011111101
1111111011111111
1111111011111110
1111111011111010
1111110011111111
1111100000000110
1111001000001010
0000001000000000
1111111100100111
0000000011011010
0000001011010000
0000001111110101
0000000111101011
0000001011101010
0000000011110011
1111111100000111
1111111000001100
0000011011011110
0000010011001000
1111111111110001
1111110111111100
0000011000000100
1111010011110110
0000001100001000
0000000111110110
0000001011110001
0000001111010101
0000000100000010
0000001011110111
0000001000000011
1111100111111111
0000011011111111
0000001011111000
0000000111110111
1111111111111001
0000000011111100
0000001111111000
0000001011111011
1111110100000100
0000010111111100
0000000100000010
0000000011111110
0000000011111110
0000001011111111
0000001011111101
0000001111111110
1110000111111100
0000001000001011
0000001000000000
0000010011111110
0000010011111110
0000000100000001
0000000000000000
1111101000000100
1101100011111100
1111101111111111
0000001111011101
0000001011111001
1111110111111100
1110011111111110
0000001111111010
0000010011111110
1111111011111110
1111110011101010
1111111000001001
1111111111110101
1111011011110111
1111101111111111
1111111111110011
1111110111111111
1111111000000010
0000010000001010
0000000100011010
1111111000011110
1111111100001110
0000000000010011
0000000100000010
1111111111111111
1111110011111101
0000010000000011
0000001000000110
0000001000000110
0000000000000011
0000000100000101
0000000100000010
1111111111111101
1111011011111010
0000001000000010
0000000100000100
0000000000000000
1111110111111111
0000000011111110
0000000100000000
1111100100000000
1111000111111010
1111111100000010
0000001100000100
1110111100000001
1111100011111110
0000000011111110
0000000000000001
1111110000000000
0000001111101101
1111111100000011
1100010100001000
1111001011101101
1111010111111111
1111101011111001
1111100100000001
1110001111111010
0000000100000000
1111111011110110
1110100111110000
1110111000100010
1111101000001101
1111101111111000
1111111100000100
1111100011111001
0000001100000010
1111100111110110
1111011111100011
1111001111101000
1110110000001100
1110111111110010
1111110000000111
1111110000000000
0000010100000001
1111101000000100
1111100011101011
1111000111111111
1111011000000011
1111010100001011
1111101100000101
1111100000000011
1111111100000010
1111001011111111
1110101011111111
1110100111111111
1110110000000001
1111000000000010
1111010011111111
1111101111111111
1111000000000010
0000001000000000
1111111100000001
1111000100000000
1111001000000010
1111101100000010
0000001000000010
0000001100000000
1111100000001001
1111111000001001
1101100100000100
1111011011110000
1111110111111001
0000001011111101
0000000100000010
1111001000000000
0000000100000011
1111110111111110
1111100111101000
1111110111100011
1111101111010011
1111110111111101
1111111100001001
1111100111111110
0000001000000001
0000000011000111
0000000011101000
1111110111110110
1111111000010011
1111101100000011
0000000000001011
1111111000001100
0000001000000010
1111111011111000
0000000011100011
0000000111101110
1111110100000100
1111111011111100
0000000011111111
1111011000000110
1111111111111101
1110110111111000
1110101111101110
1110111011110111
1110101100000001
1111001111111101
1110111011111110
1111101000000001
1111000100000001
1111111011110010
1111111100000000
1111011100000000
1111011000000000
1111101000000010
0000000100000010
0000000011111111
1111110000000100
1111110111110010
0000000100000101
0000000100000111
0000001000000010
1111010111110111
0000011011111111
0000001000000011
0000001000000001
1111110100000010
1111111011111100
1111110111111000
1111011111111001
1111100111111000
0000000111111101
0000001000001000
0000000000000001
0000000100010110
1111111100010111
1111110000010011
1111101111011010
1111110100001001
1111111000000011
1111111011111110
1111110111111101
0000000100000010
1111111000000110
1111101000000011
1111110000000101
1111110100000101
1111111000000010
1111111111111111
1111011111111100
1111110000000000
1111110100000101
1111111100000010
1111111100000010
1111110100000000
1111110100000010
1111101000000010
1111100111111011
0000000100000010
1111101100000011
1111111100000000
0000010100000000
1111101111111110
0000001100000001
0000001100000010
1111110000000000
1111011000000011
1111111000001110
0000000000000010
1111101011110110
1111010011110010
1111110100000001
0000010000000110
0000001000000001
0000000011111000
0000010000010000
0000010100000101
0000001100000011
0000010000000101
1111111111110110
0000000100000101
0000001100000001
0000010111110101
0000001111100010
0000001111101101
0000001111111101
0000001011110111
0000001011111000
1111110100000010
1111111011111110
0000001111111010
0000010000000001
0000010000000001
0000001111111111
0000001111111010
0000001111111010
1111111111111100
1110111111111101
0000010111111100
0000011000000010
0000010100000000
0000010111111101
0000001111111110
0000001111111110
1111111100000000
1110110111111101
0000000111110010
0000010000000010
0000010100000001
0000010111111110
0000010111111111
1111111100000001
0000001011111111
1111100011110111
1111011011101000
1111110111001110
0000001111101001
0000000111111001
0000001011110110
0000001000000110
1111110000000100
1111111000000001
0000001011011101
0000100011110000
0000100011011000
0000010111010100
0000011000000001
0000001111110111
1111101000000101
1111111000000010
0000010011010101
0000010011011100
0000001111100101
0000010011110100
0000001011101011
0000010011110101
1111101111111110
1111111100000001
0000001111111111
0000010011111100
0000010011111011
0000001100000011
0000001111111100
0000010011111111
1111110100000010
1111100100000100
0000011011111110
0000011100000000
0000011011111110
0000011011111100
0000010100000000
0000001011111111
1111111100000010
0000010011111110
0000001011110000
0000100000000010
0000101011111111
0000101011111100
0000011011111101
0000001100000001
0000000111111110
0000010100000000
0000000100000100
0000001111101011
0000000111101101
0000001011101001
0000100011100111
1111110011110001
1111100011110101
0000001100000011
1111101111101011
0000010000001101
0000000011100011
0000001111110100
0000010011110001
0000000011110110
1111110011100011
0000000000000010
0000000011110011
0000000111101111
0000000011011101
0000000011111100
0000001011110010
1111111011110000
1111111011110101
1111110111111111
1111101000000011
1111101011110101
0000000111101100
1111111111101100
1111111011110110
1111110011111010
0000000011111110
1111101000000111
1110110111111110
1110110111110111
1111100111111110
1111100111111001
1111000111111001
1111010111111110
1111101111111110
1111101000001000
0000010011111011
1111111111111100
1111011100000001
1111110111111101
1111111111111101
0000000111111111
0000010111111000
1111110011111000
1111110011101101
0000010011111100
0000001011011000
0000010000000011
0000011000001000
0000010000000011
1111100011111010
1111111111111100
1111110111100000
0000001000011011
0000101000001100
0000100011111001
0000011100001010
0000010000001111
0000001100000011
1111101000000001
1111001111010010
1111111111101101
1111110000000101
1111111011101101
1111101100000111
1111100011111001
1111111111101001
1111110011111111
1111001011011110
1111110011010010
1111101111010010
1111110011011001
0000000011111010
1111000011111000
1111011111110110
1110111100000101
0000001011011110
0000010011110101
0000010111010100
0000010111100011
0000001111110011
0000010011111011
1111101011111101
1111010100000001
0000010111101111
0000010111110111
0000011000000011
0000011000000011
0000001100000001
0000001111111110
0000001011110110
0000000111111001
1111101111100101
0000000011111101
1111101000000111
1111011100000101
1111101111111011
1111111011110011
1111111100000010
0000000000000010
1111011111001100
0000001011011100
1111100000010101
1111110011111101
1110111111101000
1111001111111000
1111110111111001
1111110011111101
1111101111100000
0000000011110000
0000000011111001
0000000000000011
1111111011011100
1111110111100111
1111110011111001
1111101111110001
0000001000001011
0000000000000000
0000000100000010
0000001011111110
0000000011111000
0000010011111101
1111111100000101
1111000100000011
0000010011111111
0000000100000011
0000000111111110
0000000011111110
0000000111111110
0000001011111101
0000001011111111
0000100100000101
0000010100000100
0000001111111111
0000000111111110
0000001011111100
0000001111111100
0000001111111011
0000001000000010
1111100011111111
1111111000000111
0000001100011000
0000010000001011
0000010111111110
0000100000000100
0000001000000001
0000001100001000
1111111100000101
0000010000001101
0000011100100100
0000001100010011
0000011100000010
0000011100000110
0000011011111001
0000010111111110
0000010111111101
0000001100001000
0000011100000010
0000001100000010
0000000100000110
0000010100000000
0000011011111001
0000011000000110
0000011111111011
0000010100000011
0000010011110010
0000000111110110
0000000000000011
0000010111111100
1111111111110111
0000011111111100
0001000100000010
0000100011111110
0000001011101110
0000000011101010
0000000111101000
1111111011111001
0000000011110100
0000010111110001
0001111100000000
1111110100000110
0000001011111101
0000000111111100
0000001011111011
0000000011111110
0000000011111100
0000000011111110
0001101111111100
