0000000100001001
1111111100000011
1111111011111101
1111011100000011
1111010000000010
1101111000000101
1110101000000001
1111000111111100
0000000100000001
0000000010111000
1111111111010001
1111111100001010
0000011000000100
1111111100000011
0000000100000010
1111110011111011
1111111000001001
0000000111100100
0000000111110010
0000000011111010
0000010011110000
0000000111111101
0000000011110111
1111101111111010
1111111111011110
0000000010111101
1111111111110101
0000000000000000
0000010011111110
0000000111111100
0000000100000000
1111110000000001
0000010011100101
1111111111011000
0000000111111110
0000010111111110
0000001000000010
0000000100000010
0000001011111111
0000000000000000
1111001011000011
1111100000000110
1111101000000010
1111100111111101
1111111100000001
1111111100000011
0000011000000100
1111110111111111
0000001011110100
1111011011011100
1111011000000111
1111011100000111
0000000100000001
1111101100000000
1101011000000001
1101010100000101
1111110011011000
1111110010111111
1111001000001011
1111000011100110
0000011011111101
1100000000000100
1111100000000111
1110011000000110
0000000011101100
1111110111100010
1111101111101100
1100101111110110
1110000011110001
1110011000001011
1111110100000101
1111110111111111
1111110111111000
1111110111100010
1111111111100110
1101000100000010
1100100100001110
0000000000000011
0000000000000011
1111111100000010
1111101110111011
1111011011010000
1010111111110111
1101110011111101
1100111000000010
1111100100000010
0000000000000010
1111110100000010
1111011010101100
0000000011111011
1111110100000110
1111000100000010
1111010011111101
1101110011111110
1111011100000001
1111110100000010
1111101011110000
1111100111111011
1111111100000011
0000000011110000
1111101000000000
0000010111111100
1111110111111000
1110111100000010
0000011011101110
1111110011110110
0000010011110101
0000001111011111
0000010000000000
0000001011111101
0000100011111100
1111101000000010
0000010111100000
0000000011110001
1111110111111101
1111111011111001
0000001000000010
0000000111111110
0000000011111101
1111111011111101
1111110011100000
1111111011001100
1111101111100011
1101010011011110
1101111011100111
0000000011111100
0000000011110101
0000000111111011
1111101011011100
1111000011001011
1101011011010010
1100011111110001
1111010000000100
0000000000000010
0000000011111110
0000001011111111
1111100111000110
1111011011011010
0000010111101011
1111111011110111
1110101111111111
1111100100000001
1111101000000000
1111100100000001
0000000111101000
1111101100001110
1111110000001000
0000000000000101
0000000000000011
0000000111111000
1101111100000010
1101100011111101
1111101011001001
1111011100000111
1111100000000111
1111111000000111
1111001011111111
1111011111111000
1111111100000011
0000000111111111
1111101011110010
1111110011100111
1111100111011001
1111010100001101
1110111100000011
1111011000000100
1111111100000110
0000000011111011
1111001111101011
1111110011100100
1111111011101110
1111101011111000
1111111000000000
1111111000000001
0000000000000000
0000000011111111
1111001100000100
1111111100000101
1111110000000000
1111110100000011
0000000000000011
0000010011111111
0000001011111101
0000001000000000
1111011111111000
1110101111111011
1111011000000100
0000011000000010
0000001000000011
0000001100000011
1111101100000011
1111110100000000
0000001011111110
1111101111111101
1111110011101000
1111101100000000
1110110100000000
1110111000000010
1110101100000010
1101001000000001
0000000011111001
0000001000000100
0000000111111101
0000000000000011
1101111111111111
1111110000000010
1111101000000010
1110001111111111
1111111111110000
0000000100000101
0000000111110011
1111111111101101
1111111011101111
0000000000000011
1111110111111111
1111100100000000
0000010011110010
0000000100000110
0000001111101000
0000011011011011
0000001100001000
0000000100000011
0000000111111111
1111111100000000
0000001011101100
1111111011001001
1111110011110101
0000110000000001
0000011000000001
0000000000000100
0000001000000001
0000001111111111
1111100000000110
1111000011011101
1110111011110001
1101110111111101
1111011011111111
1111101000000011
1111111100000010
1111110111111100
0000000111100100
1111100111111011
0000001000000011
1111111000000011
1111111100000100
1111001100000010
1111000100000001
1100101100000111
0000000111010101
1111111010110111
0000001100001101
0000000100000101
1111100000000011
1110100000000001
1111000000000011
1110010000000100
1111111111010101
0000001011010011
1111111111101000
0000000011101001
1110100000000001
1111001000000100
1111110100000011
1111011111111100
1111110111000001
1111110111010011
1111011011101110
1110010011100100
1101011100000100
1111110000000100
1111111100000001
1111111011111100
1111011111011110
1111011111001100
1110111111110011
1100100011111001
1110101100000001
1111100000000010
1111111000000000
0000000000000000
1111010111101100
1111101011111010
1110110100000010
1110100011111011
1101110011111010
1101111111111111
1111010100000001
1111110000000010
0000001011111111
0000010000001011
0000001000000111
0000001111111101
0000000100000011
0000001111111000
0000001111110100
0000010011111001
0000001011100110
0000001111111011
0000000111111100
0000001111100110
1111111111110111
0000001100000001
0000000011111110
0000010011111111
0000000110111111
0000001011001110
0000001111110100
0000010111111011
0000000111111101
0000000111111111
0000000100000000
0000010000000100
0000011111000111
1111111011011010
0000001011101000
0000001111111110
0000011011111100
0000000100000001
0000001111111111
0000010011111101
1111010111110011
1111111000000000
0000010111110101
0000010111110111
0000001111111001
0000001011111101
1111111111111111
1111101011110010
1111100111111111
1111110111110111
0000001100000011
0000010011111101
0000001111111101
0000001111111001
0000010011110011
1111001111101111
0000000011111000
0000010011110100
0000001111110001
0000010100000101
0000001000000100
0000011011111010
0000010111100101
0000010111110101
0000000100000110
0000001000001110
0000001011001010
0000011000001001
0000010100000000
0000001111111110
0000000011111111
0000000111111111
0000001011111100
0000001100001010
0000001011100001
0000100011100101
0000000011111101
0000001000000000
0000001011111111
0000001111111110
0000111000010001
0000010000010001
0000010011111110
0000001111110000
0000010111110100
0000000111111110
0000011111111010
0000000111110101
0000011111111101
1111111111011101
0000010000000100
0000001111111111
0000001111111010
0000001111111110
0000010100000000
0000010111101011
0000111100000100
0000010011111010
0000011100000111
1111111100000010
0000001000000001
0000010111111111
0000011011111100
0000000011100001
1111101111100111
0000000111010100
1111111011110100
1111110000000001
1111100100000000
1111010100000000
1101010000000011
1110011100000000
0000001011111100
0000000111111111
0000001111001001
0000001100000001
0000011000000001
1111110011111110
1111101100000100
1110011100000011
1111101000101010
0000000000101111
0000010111110110
0000010111111010
0000001111110101
0000000111110111
1111110111111010
1110110011110111
1111100111111101
1111110100010010
0000001011100011
0000001111101111
0000000011111001
1111111011111101
1111110011111001
1111111111111100
1111110011011011
1111110011001000
1111111111111101
1111010011111001
1111011111111011
1111110111111110
1111110011111110
1111101011111111
1111100011110000
0000010111011111
1111101011111010
1111010011110111
1110101111111011
1111110111111101
1111101011111111
1111111000000000
1111111111100100
0000000011110110
0000000000001000
0000001011111011
1111111011111111
1111011111111110
1111011011111110
1110100011111101
1111100100001000
1111111111111110
0000001011011110
0000000111110100
0000001011101110
0000000011110100
0000001111100111
1111010111111110
1110100111101011
1111111000000001
0000001000001000
0000000111111111
1111111100000010
0000000111111111
0000000000001001
1111110100000111
1101001111111101
1111010011111011
1111100000000010
1111110000000100
1111111100000010
1111110000000011
0000000000000010
0000001000000001
1111101111100110
1111101111010111
1111101111010100
0000000111111000
1111101100000010
1111111000000100
1111111000000010
0000000011111111
0000010111110010
0000010111010000
1111100111110110
1111101111111110
0000010111111111
0000010011111111
0000010111111111
1111110011111111
1111001011111010
1111110011101000
1110110011111100
1110101011111110
1110100111111110
1101011000000000
1110010111111100
0000001011111100
0000001011111001
0000000011100000
1111110111111011
1101010111111011
1100101011111101
1101100111111110
0000000111111111
1111111111111111
1111101100001001
0000000000000100
1111111111101011
1101011111011111
1110000100000110
1111010011111000
1111111111111101
1111111100000000
1111100000000110
0000000100000110
1111011100010100
1111000000001100
1111001111111100
1111001111111100
1111110111111111
1111111011111110
1110100111101010
0000001011111000
1111110100000101
1111100000000010
1111011111111011
1111101111111101
1111111111111110
1111111100000010
1110100011101111
1101100011111011
1111110100000011
0000001100000011
1111100011111111
1111111011111111
1111101000000000
1111111000000010
1111011111110110
1111110111011000
0000001111101011
0000011011110111
0000011011111001
0000101011111110
1111110100000110
1101101011111110
0000001111100110
1111011111110110
1111000000000001
1111110111111111
1111101000000000
1111111100000000
1110000000000100
1110101000000001
1111101011100101
1111110011100000
1111011011011001
1111000111110010
1110101100000000
1110111100000100
1111101100000010
1111110011111011
1111001111011110
1111010111111101
1111101011111010
0000000011101101
0000001011110110
1111101000000010
1111110100000001
0000000111111110
1110111111111010
1110010000001111
0000001100000000
0000000100000001
0000001011111011
0000001011111011
1111110111111101
1111101111111111
1111010100001000
1110000100001000
1111111100000011
0000010000000011
0000010100000011
0000001111111111
1111100100000000
1111110111111111
1111110111110101
1111111111101110
1111111100001011
1111010000000011
1100010111111011
1111011100000000
1111100100000001
1110011111111110
1111100100000111
0000000111100010
0000000100000111
0000000000000011
1111111111111101
1111111011111100
1111110100000000
1111010011111011
0000000000010110
0000000111101011
0000001011010101
0000000100001000
0000011011111001
0000000000000100
0000000100000000
1111111111011000
0000000000000001
1111111100000010
1111111100001101
0000001000000101
0000000100001011
0000000100000010
0000000100000011
0000001000000000
1111101000000101
1111110000000100
1111011000000001
1110011000000001
0000010000000011
0000000100000010
0000000100000000
0000010000000000
0000000000010000
1101111111110101
1110101111111001
0000000100000001
0000010100000010
0000001000000011
0000001000000011
0000000000000000
1111111000000000
1111111000000010
1111111011011010
1110111011100111
1111100111111011
1110101000000000
1110011100000010
1111000100000011
0000001100000111
0000000000001001
1111111111010100
1111110011101001
1011001100000011
1111100000000001
1111100000000010
1111011111111111
1111111111111110
0000000000001101
0000000111100010
0000000111101011
1111000100000011
0000000111111101
0000000011110011
1111101011110101
0000000000010011
0000000100000001
0000000111100101
0000000000001100
1111110000001001
0000000000000001
0000000100000001
0000000111111111
1111101100010011
0000001000001011
1111111011111010
1111000100000100
1111111100000100
0000000100000001
0000001000000000
0000001111111111
1111101100010110
1111111100000100
1110110111111101
0000011000000010
0000000100000010
0000000100000011
0000001100000010
0000000100000000
1111110011111000
0000000111101101
1111101111110011
1111010111111001
1110000000000010
1101110000000000
1101010111111101
1100101100000101
0000000011111100
0000001011110001
1111100111111011
1111101000000111
1111010100000101
1110110000000001
1101101100000011
1111001100000010
0000000100010111
0000001000000011
0000000011101010
1111111011100011
1111100111100101
1111101000000011
1111101111111110
1111110100000011
1111111100001111
0000000011010100
0000001011100110
1110100011100110
1110100011110010
1111111000000000
0000000011111101
1111111111111110
1111110000011010
1111111100001001
1111101111001101
1100101111111100
1111101000000011
1111111100000010
0000001000000000
0000000111111111
1111000000010101
1111010100001000
1111000111110101
1111111011111100
1111100000000000
1111100100000010
0000000000000010
1111100111111111
0000000111011011
0000010111101100
0000010000000011
0000001100000101
0000000111111110
1111101000000000
0000000011100110
0000110011110011
0000010111110010
0000001011101010
0000001011011111
0000000011100001
1111101011111000
1111110100000000
1111100111111001
1111111000000000
0000100111100100
0000001111101011
1111111111101111
0000001111011011
1111111011110100
1111101111110010
1111110011110110
0000000111111111
0000011111101101
1111111100000010
0000000100000000
0000001011111100
0000001111111010
1111110011111000
0000001011111011
0000001111110111
0000100111001110
0000011100000011
0000011011111111
0000010011111111
0000001011111010
1111111111111010
1111111111111111
0000001111111011
0000011011010010
1111111000001100
0000001100000101
0000001011111110
0000001011111110
0000000111111110
0000000111111100
1111111111111001
0000000111101101
0000010011100111
0000001011000001
0000010011111010
0000001011110010
0000000111111010
0000001011101010
0000011011110111
0000101100000100
0000000111111010
0000001011110110
1111110111110100
0000000011111101
1111111011110100
1111110011111000
1111110000000000
0000100011111001
0000001111101001
0000000111110010
1111110111111101
1111111111111110
1111111111111100
0000000100000000
0000000011111111
0000010011110100
0000000111110111
1111110111111001
1111111000000010
1111101000000000
0000000000000010
0000010111111110
0000001111111010
0000010100001100
0000010011111111
1111101011111110
0000000011111010
1111100000000000
1111111100000000
1111110100000001
0000001111111100
0000100000010000
1111111100000101
1111101111111111
1111011111111111
1111110000000000
1111111011111110
0000000000000001
1111111111111101
1111110111111110
1111010011101110
1111011011111110
1111010000000001
1111011000000011
1110111111111101
1011111111111110
1101110100000001
1111111011101101
1111101011110000
1110000111111111
1110000000000001
1101001000000100
1011100100000100
1111011000000010
1111111000000010
0000000111111100
1111111000000000
1111010000000111
1101011011110011
1111011000001011
1110010100000101
1111110100000101
0000000011111111
1111011111111011
1111111100000011
1111101000000010
1111010011111110
1111100100000100
1111100100000100
1111110000000011
0000000000000000
1111100000000101
1111100011111101
1111101000000010
1111110100000100
1111110100000001
0000000000000000
1111101100000000
1111100100000001
1111100000001100
1111011000000001
1111110000000000
0000000100000001
0000000100000001
1111110011111101
1111100111111011
0000000000000010
1111111100000110
1111111100001001
0000000111100000
1111010100000101
1010100100000110
1010001000000100
0000110000000011
1101101000000000
0000000111111010
0000000100000111
0000000000001110
0000000000000111
1110100000000011
1111111000000010
1111100100000001
1111011111111110
1111111111010111
0000000000000111
0000000111110010
0000000000010101
0000000100001111
0000000011111100
0000000011110001
1111111011111101
1111111111011100
0000000011000111
0000001111101110
0000000111111101
0000001100000010
0000000100000000
0000000100000010
0000000100000000
1111110111111110
1111001111101100
0000000011001011
1111111011111101
0000000000000011
0000000100000010
0000000011111111
0000001000000000
1111101000000110
1111110100000000
1111011011110000
1111001111111100
0000000000000001
1111111000000001
0000000100000000
0000000100000001
1111110000000100
0000000000001000
1111110011011110
1111100000000001
1100100100000100
1110011100000100
1110111000000101
0000010011111111
1111110100000010
0000001000010001
1111111111110010
1111110111101111
1111111100000011
0000010100000000
0000001100000000
0000011011111001
1111101011000100
1111110110111011
1111111111011000
1111011100010101
0000010000000111
0000001100001001
0000001111111011
0000001111111010
1111001111000010
1111100110101001
1111011111011110
1111101100000010
0000010000000010
0000000100000010
0000000011111111
0000000011111111
0000000011111010
1111101011111001
1111010111110011
0000001011111111
0000010100000000
0000000111111110
0000000011111110
1111110000000000
0000001011111110
1111111000000010
0000001011111001
1111101000000000
0000000100000001
1111111100000001
0000000100000000
0000010100000001
1111011111110110
1111100011111001
1111001100000000
1110111100000010
1111001111111111
1110011000000000
1111000000000010
0000010000000001
0000000011111010
1111110111111100
1111010011111000
1101010100000011
1110000011111111
1111011000000001
1111110100000100
1111101100000010
1111100111100001
1111101011100011
1111100011011010
1111000000001010
1111100000001101
1111010100001001
1111110100000111
1111111111111011
1110100011000010
1111100111100001
1111111011110000
1111100111111001
1111101000000101
1111100100000110
1111110100000100
1111111000000010
0000000011101110
1111100011111010
1111010000000001
0000000100000011
1111110000000011
0000000011111110
1111111000000000
1111101000000010
0000000000001001
1111111000000010
1111101100000000
1111110111111111
1111110011111111
1111011011111101
1111100011111010
0000000100000011
1111110111110001
1111100011111101
1111011011111111
1111011100000011
1111100011111011
1110101111111110
1110011111111111
1100010100000000
0000000011111010
0000001000000000
0000000011110011
1111011011111000
1110001011111010
1111011111111101
0000000111111010
0000001111111101
1111101011100110
1111101111100111
1111110111100010
1110001011110101
1110110111110101
1111100011111110
1111111100000001
1111111000000000
1111001111111110
1111110011100110
1111110011111101
1110101100000000
1110101111110011
1111010111111110
1111101111111111
1111101000000001
1111110111100111
1111110111111110
1111110000000000
1110111000000010
1111100111111101
1111111011111011
1111111011111101
1111101000000001
0000001011011100
1111010111111110
0000100100000000
0000001111111111
1111101100000001
1111110111111100
1111100111111101
0000010000000001
1111101111111100
1111110011101101
0000000011110101
1101101011111011
1100001011111100
1111000111111010
0000001011111010
1110100000000010
1111001111100010
0000001011011011
0000000111101100
1111111011101001
1100110111110101
1111101111111010
0000010011111100
0000101111111111
1111110111010010
1111111111110100
1111111111100000
1111100111110100
1101010011110011
1111011111110111
1111111011111110
1111110000000110
1110111011111010
0000000000000110
1111101111100000
1101100111110100
1101001111110100
1111101111111000
1111111000000010
1111110000000101
0000001011101111
0000000111101110
1110101011110101
1101010011110110
1111011011111000
1111110111111010
0000000011111110
1111101000000011
1111110111110000
1111111111110010
0000011111111011
1111000111111111
1111100000000001
0000000111111101
1111111011111010
0000000100000000
1111110011111101
1111001000000001
1111110111111010
0000000111111010
1110000111110101
1111011011110101
0000001011110100
1111100111110111
1111011111111101
1111110000010010
0000000111110101
1111110111111100
1111110011111000
1111101011111010
1111000111110110
1111100111110111
1111111100011010
0000000000011111
0000001000000010
0000000111110000
1111110100000000
1111101111111010
1111100111110001
1111111100000010
0000000000011001
0000000100011001
0000010000000111
0000001100000001
0000001011111101
0000000011111011
1111110000000001
1111110100000011
1111111100001101
0000000000000111
0000010111111111
0000010000000010
0000001100000010
0000001000000000
1111111100000000
0000001000000000
0000001111111000
0000010011111111
1111111111111101
0000000000000000
0000000000000001
1111110111111111
0000000011111011
0000001111111110
1111111111101101
1111110011111101
1111101110111110
0000011011100101
0000001111110110
0000000111111111
1111111000000110
0000011100000001
1111111111100010
1111111100000110
1111111111100011
0000000011110110
0000000000000100
0000000000000010
1111110000000111
1111110111111111
1111100110100111
0000000111101100
0000000111111001
0000000111111111
1111111111111111
0000000000000010
1111101011111010
1111110000000101
1111100011110100
1111101011110010
1111101111111010
0000000100000100
1111111100000001
0000000011111100
1111100111111101
0000000011111111
0000001100010101
1111111100000010
1111110111101111
1111111111111111
0000000011111101
1111101011111110
1111100111111111
1111100000000001
0000101000000100
0000100011110011
1111101011101111
0000000111111000
0000001011111011
0000001111111010
0000000011110110
0000010000000000
1111110111101110
1110101111111101
1111010111111111
1111101000000010
0000001011111101
0000010000000001
1111011111111110
1101011100000001
1111101111000000
1110110111110101
0000001000000101
1111100100000000
1111110111111110
1111001100000000
1111001111111110
1100010000000100
1111110011010010
1111010111110011
1111100111111000
1111100111111110
1111010000000000
1101101011111111
1110110100000101
1111110100000100
1111011111111011
1111011100001101
1111110100001100
1111110100000001
1111110011111011
1110111011111000
1111100011111110
1111110100000100
1111111100000101
1111101100001100
1111100100000101
1111111000000100
1111100111111110
1111110111110110
1111111011111110
0000000000000001
0000100011110100
0000010000000100
0000010000000101
0000001000000001
1111010111111110
0000000011111001
1111110111111011
0000001100000001
0000000000001111
0000000100010001
0000000000000000
0000000111110101
0000010011110010
0000001011111110
0000000100000011
0000000011110101
0000000000010011
1111111100011000
1111111000001111
0000001011111010
1111111011110111
1111111011110100
1111111011111000
0000001111110010
0000001100100111
0000000100011100
0000001100001101
0000000100000011
0000000011110100
0000001011110110
1111110111111001
1111110111110111
0000000000110001
1111111000010101
0000010011110110
0000001011110101
0000000111110100
1111111011101111
1111101011110011
1111110011110011
1111101100001111
1111110000001000
1111111011111100
0000000011111001
0000000011110100
1111110111110111
1111110111110100
1111101111101100
0000100000010010
0001000111111000
0000101111111001
0000001111110110
0000010011111001
0000010111110111
0000001011111000
0000001111110101
