1110000111111001
1100110000000010
1100101000000001
1111101100000000
1111101000000001
0000000100000000
0000000000000100
1111111111111101
1111100111111000
0000000111111111
1111111111111010
0000101111111101
1111111111111010
1111111011111111
0000000011111111
1111111011111101
1111101011110110
0000000011110111
0000001011110101
0000010111110100
1111111011111000
1111111000000000
1111101111110111
1111101111111110
1111111100000001
1111111111111101
0000000111111000
0000000100000000
0000011111111111
1111101011111111
1111100011111111
1111100100000010
0000000000000101
0000000111111111
0000000111111100
0000001011111111
0000011111111111
0000100000000100
1111001000000011
0000010000000000
1111111011111011
0000011011111000
0000001111111110
0000001000000011
0000000000000011
1111010011111110
1100110111111100
0000100011111100
1100100000000100
1100000100000101
1111000011111110
0000011000000010
1111110111111011
1111011111111110
1111100000000110
1111111000000101
1110001011111110
0000001111111011
1110000011111001
0000000111111010
1111111111111000
1111111011101001
0000000011110011
1111111111111100
1111100000000010
1111111100000000
0000000011111010
1110001011100010
1101110011100100
0000001011111010
0000000011111000
0000001000000001
0000000100000101
0000000000000010
1111111111111101
1110110011111000
1101101111111110
0000010000000010
0000000000000010
0000010100000100
0000000100000000
0000000011111101
1111110111110110
1110100011101001
1110100011110111
1101010011111101
1110111011111111
1111101000000110
0000000111111001
1111011111111101
1110111111110010
1111011011010100
0000000111001100
1111000111110011
1110100000000010
0000100111111100
1110011111111001
1111011011111011
0000011000000000
1111101100000011
1111110100000100
1111110111111111
1111100011111011
1111100111101010
1111001111111011
0000001100000011
0000000100000101
0000110100001001
0000010000001000
1111111100000011
1111101011111110
0000000111110101
1111100100000001
0000001111111110
0000000100000011
0000000100001000
0000001100001000
1111110100000101
1111110100000010
0000001000000011
0000000000000011
0000001011111100
0000000111111100
1110011111111100
1101111011111111
1111011100000011
1111101000000100
0000001000000001
0000000011111010
0000000111111010
0000000011101010
1111101011011000
1011111100000000
1011011111111111
1100010000000001
1111001011111100
0000000111111011
1111110111111100
1111110111111100
1111100011110100
1111000111111000
1110100111111111
1110011000000001
1111110111111110
1101001111111010
1111000011111010
0000001111111111
0000100111111101
0000010111111100
1111111111111111
1111101111111010
1111110011110110
1111100111111110
0000010000000000
0000010100000001
1111101111111100
1111110111111001
1111100100000001
1111101100000010
1111100100000010
1111100000000000
1111101100000100
1110111100000011
1011111000000010
1101001000000010
1111001100000011
1111101000000110
1111101100000011
1111111100000001
1111101111111110
0000000000000011
0000000000000001
1111110000000010
1111011111111101
1111100011111100
1111100100000001
0000000111111101
0000000111111101
0000001011111010
0000001011111111
0000000100000000
0000000011111101
1110110011111010
1101111000000000
0000000111111100
0000001011111000
0000000111110100
0000000111111010
0000010011110010
1111110011110111
1110000111111100
1110011011111000
1110101111111111
1110100000000000
1101101011111100
1111001011111111
1111101000000010
1111101011111010
0000000011110100
0000010011110101
1101011111111111
1111000000000100
1110100100000001
1110000111111111
1111111011110111
1111111011110111
0000000111111011
0000000111111111
1111010111111110
1111101000000000
1111110011111100
1111010011111001
0000010011111111
0000001111111000
0000000111111011
0000000000000001
1111111000000100
0000000111111010
1111111111101010
0000001111101010
0001000011111100
0000010011111110
0000001111111110
0000010100000010
0000000100000000
0000001011110011
0000000111100011
0000010011111100
1111100111111011
1111000011111110
0000000100000000
1111011100000001
1111110111111101
0000001011111000
1111111111110010
1111110111100111
1111001011110001
1110010011110100
1110000011111000
1111000000000001
1101011011111111
1110001111111110
1110100100000101
1111111100000001
0000000000000000
0000010000000011
1111100100000011
0000010011110111
1101101011111110
1100010011111111
1101111000000100
1111101111111110
0000010111111101
0000010011111110
0000000000000000
0000000111111011
1111011100000001
1111111011111100
1110101111111010
1110000011111010
0000101011111011
1111111100000010
0000000000000111
0000000000000010
1111111000000011
0000000011111011
1111110111111011
1110000111101101
1110100011111001
1111111000000000
0000000100000101
0000011000000011
0000000011111111
1111111011110011
1111110011110010
1110111011100000
1101110011101011
1101000011111010
0000011111111111
0000010000000010
0000000111111111
1111101011111100
1111001011111010
1110001111101111
1111001011100111
1110111011101111
1111110011110011
1111010100000011
0000100000000010
0000011111111111
0000100100000000
0000001100000000
0000001000000000
0000000000000000
0000000100000000
0000000000000010
0000010100000001
0000001011111001
0000010011111010
0000001111111011
0000000011111010
1111111011111100
1111101011111101
1111101011111010
0000001000000001
0000000111110111
1111111111111101
0000000011111110
1111101011111001
1111101011111111
1111100111111010
1111010011111100
1111111011111100
0000001011111010
1111111000000011
0000000000000100
1111111100000001
1111100000000000
1111010011111111
1110101011100011
1111110011100100
1111111100000110
1111110100000011
1111111100000001
0000000011111111
0000000100000100
1111011100000011
1111000111110110
1110100011100111
0000000000000000
1111111100000100
1111111100000100
0000000100000100
1111111100000011
1110001111111010
1111111011111001
0000011100000011
0000110011111111
0001000011111110
0000011011111111
0000010011111111
0000000111111111
0000001000000010
1111110100000001
0000001000000000
0000000000000100
0000010111111100
0000010111111001
0000010011111010
0000000011111010
1111100111111110
1111100011110101
1111111111111111
0000000100000110
1111111100000100
1111101100000001
1111111111111111
0000000111111111
1111101011111101
1110111111110011
1111101011110110
0000001011111011
1111110100000000
0000000011111001
0000010111101111
0000000111111111
1111101011101011
1111111111110111
1111101011101001
0000100011110111
0000000000000011
0000000100000001
0000001111111101
0000000100000001
1111011011101000
1111111111110010
1111010111110011
0000010100000010
0000001100000010
0000000100000011
0000001000000011
0000000100000010
0000011100000000
0000111011111110
1101010000000000
1101000000000001
1111000000000011
1111101111111011
0000000111111010
1111110000000000
0000001100000000
1111111111111110
1110111100000011
1111101011111001
1111111000000011
0000010111111011
0000010011111100
0000001011111110
1111111011101011
0000000111111010
1110111111111101
1111101111110000
1111111011111011
1111111011110010
0000001111110111
0000001111111010
1111101011111000
1111110111111110
1111110011111110
1111100111111001
1111101000000010
1111101011111001
0000001111111110
0000000100000110
1111110000000101
1111111000000001
1111111000000001
1111110011111000
1111101011111110
1111011011111110
1111001111111110
1111110000000010
0000010000000011
0000000100000100
0000000000000110
1111100100000010
1111100011111010
1110011111111001
1111010011110110
1111010111110110
0000100100000011
1110010100000110
1110111100000001
1111101100000000
1111001000000011
1111111000000001
0000001100000001
1111111100000000
1111111000000010
1111101111111110
0000001000000100
0000000011111100
1111111100000000
0000000111111101
1111111111111000
0000000011110101
1111110111110001
1111100011111111
0000010000000011
0000000111111100
1111111111111011
1111110111111011
1111110111111010
1111110100000000
1111101000001000
1100010011111111
1111111111111101
0000001011110110
1111111111111001
1111110011111110
1111110100000001
1111101000000010
1111011000000101
1100110111111110
0000000111101011
0000001000000100
1111110000000101
1111101100000101
1111111000000010
1111111000000111
0000010100001001
1111100011111011
1111010011101111
0000001111111111
0000000100000011
0000000100000011
1111101000000100
1111100100000100
0000011111111111
0000000111111100
0000000011101111
1100111000000011
1110001011110111
1111000011100110
1110110011011011
1111000111100111
1111010111111111
1111001011111110
0000011011111111
0000001000000001
1011110100000010
1110001011111011
1110011100000000
1111011100000001
1111110100000111
1111101100001110
1111100000000000
1111110100000010
1110110100000011
1101010000000010
1100100100000000
1111101000000010
1111110000000110
1111100000000011
1111111011111101
1111100111111101
1110111000000001
1110010100000011
1111101000000010
1111011111111011
1111110011111101
1111100100000000
1111111111111111
1111110011111101
1111101000000001
1111101000000010
1111110000000011
1111100011110111
0000000111111011
1111011100000001
0000000011111111
1111110011111110
1111110111111110
1111110000000010
0000000011110110
0000000111110111
1110011111111110
1100010011110111
1101011111111100
1110100111111101
0001000000000100
0000101100000011
0000100000000011
0000001111111111
0000001011101110
0000000011101010
1111010011111110
1101111000000001
0000010000001000
1111110100000011
1111110000000011
1111010111111111
1111110011111110
1111111100000100
1111011000000010
1111100000000101
1100101000000011
1101101100000010
1110001000000011
1111011000000011
1111110100000101
1111111011111111
1111110100000001
1111011100000011
1111100000000100
1111110100000000
1111100000000001
1111100111111101
1111101111111110
1111100000000000
0000000011111101
1111111011111111
0000000111111110
0000000000000000
0000001011111111
0000010111110110
1111001011111011
1110101011111110
0000000011111111
1111101111111100
0000000100000011
0000001000000000
0000010111111110
0000010011111111
1111010011111100
1101010000000000
1111100011110111
1101101100000001
1111010000000000
1101101111111101
1111001111111101
1111110111111101
0000000100000011
1111101011110010
1101100011111110
1111001100000000
1111111111111000
1111110111110110
1111110111110110
1111111011111011
0000000111111110
1111110111110000
1111101111111110
0000000111111010
0000001011111111
0000101111110100
1111111111111011
1111111011111110
1111111011111010
1111101011111110
1111111100000001
0000000111110111
0000001000000001
0000001011111111
0000000000000001
1111101100000001
1111101111111011
1111110000000001
0000000111111111
0000000111110010
0000000111111110
0000010011111011
1111110000000000
1110011111111101
1110110100000010
1110011100000010
0000000111111001
0000010011111001
0000000111111100
0000010111111010
0000000000000000
1111100011111110
1011111011110010
1110101011110110
0000001000000001
1111001011111101
1110110011111101
1011011100000011
1111010100000010
1111100111111010
1111110011111001
0000001111111011
1111010011111111
1110110000000001
1110100000000000
1010011111110101
1111110011111011
1111111111111001
0000000111110011
0000000011111010
1111101111111111
1111110111111111
0000000111111001
1111111111110100
0000000011111100
0000000111111000
0000000011110001
1111101100000000
1111111111111110
1111111111111111
0000000100000000
0000001000000000
1110101000000000
1111110011111100
1111110011111111
1111100000000000
0000000111111111
0000000011111001
0000000011111101
0000001011111100
0000000011111110
1111101111111100
1111110100000000
1111101111111111
0000001111111101
0000001111111010
1111111111111111
0000000111111100
0000000100000001
1110110100000001
1110011011110101
1111100111111111
1110101111111001
1110011011111011
1100110111111101
1101101100000100
1111000100000100
1111101111111100
0000000011111110
0000000011101111
1110011011111101
1011110111111111
1011110000000111
1111011000001001
0000001100001001
1111111100000100
0000000111110100
1111110111100111
1111011111111111
1111110011111110
1111001000000100
1101100100000111
1111010000001001
0000000000000110
0000000011110100
0000000011110101
1111111100000000
0000000011111111
1111111111111110
1111001100000001
1110000111111111
0000000100000000
1111111000000000
1111111100000000
0000000100000000
0000000011111100
1111111111110110
1111111011111000
1101101011111111
1110100100000000
1111011100000000
1111110111111111
1111111111111011
0000000011111001
1111110111111011
1111101011111001
1111010111111110
1110100100000101
1110001011111011
1101001011111011
0000010100000011
1111100100000010
1111110011111110
1111110100000000
0000000100000001
0000000111111111
0000000100000000
1111101100000010
1111101100000001
1111110000000100
1111011011111010
1111100100000000
1111110011111100
0000000011111010
1111110011111101
0000000111110011
1111110011111110
1111100000000001
1111100000000001
1111100100000010
1111110100000000
1111111111111110
0000000011111011
0000010111111011
1111110011111000
1111110100000110
1111101100000011
0000000000000101
1111111100000001
0000001000000000
1111111011111001
0000000111110010
1111100111111001
1111100100000100
1111110100000100
1111111100000010
0000000000000000
0000001100000000
0000001000000000
0000100111110001
1111100011110100
1111111100000100
0000000000000110
1111111100000011
0000000000000011
0000001000000100
0000001100000001
0000000011111010
1111010100000010
0000000100000000
1111111000000010
0000001100000001
1111111000000001
1111111011111111
0000000000000000
0000000000000001
1111100100000100
1111101100000100
1111111100000100
0000000100000010
1111100000000100
1111101100000010
1111100111111001
0000010011111111
1111100100000000
1111110100000111
1111110100000010
1111111100000000
1111110111111111
1111101111111001
1111110111111100
0000010011110001
1111101100000000
0000000000000100
0000000000000100
1111110000000001
0000000000000001
1111100111111101
1111111011111011
0000001111111000
1111111011111000
1111110100000001
1111111000000100
1111110000000100
0000000100000010
1111111100000010
0000001111111011
0000110111110111
1111110011110100
1111110100000001
1111101100000100
1111111000000101
1111111000000001
1111110011111111
1111100011111100
0001000011110010
1101101111111111
1100101011111000
1110001011110111
1111101111101001
1111111011100110
1111100111101001
1111100011111100
1111101111110001
0000000011111110
1111000011110111
1101100011111001
1111001011110010
1111100111100011
1111110111110100
1111011100000010
1111110100001001
1111111000000001
1111101100000000
1100110111111100
1111111111111110
1111001111111011
1111010011111101
1111101000000111
1111101100000100
0000000011111111
1111111111111100
1111110000000000
1111110100000010
1111100111111111
1111001011111110
1111110000000011
1111101100000001
1111111100000001
1111110011111101
0000000011111011
0000000011111101
1111111111111011
1111011011110111
1110100011110110
1110111100000001
1111111100000110
1111101000000001
1111111011111101
1111111111110110
0000000111111100
1111100111111111
1111110100000101
1111010100000001
1101110100000100
0000100011111011
1101111111110100
1110000011111101
1111011111111101
1111101111111011
1111111111111101
0000001000000011
1110110011111111
1111000000000000
1111110111111110
1111110011101110
1111110111101010
1111111111111100
1111111011111100
0000000111110110
1111110011111100
1111111011111100
1111110111111001
0000000111111100
0000000011111001
1111111111111000
1111111011110001
1111101011111100
0000000011111110
0000000111111010
0000000111111000
1111111111101011
0000010111111011
0000000100000010
1111101011111111
1110111000000001
1111111100000011
0000000111111100
0000000111111100
0000000011111000
1111010111111100
0000010011111110
1110100111111110
1111110000000000
0000000100000001
0000000011111111
1111111111111100
0000000111111101
1111100100000011
1111011100000000
0001100100000000
1111101111111010
0000010100000110
1110110011111001
1110000111111101
1110011111111011
1111100111111010
1111101111111111
0000001011111101
0000001000000100
0000001111111111
0000001111111101
0000100011111000
0000010011110000
1111110111111010
1111110011111111
1111111000000010
1111111111111101
0000000111111100
0000010000000001
0000010011111101
0000100011111101
1111011111111111
1111110100000100
1111110000000011
1111010011111101
1111111011111110
0000000100000001
0000000111111100
0000001111111001
1111111111111111
1110110100000000
1110111011111101
1110110000000000
1111111000000001
0000000011110111
0000000111111000
0000001111111100
0000000011111111
1110101000000000
1101001111111111
0000001100000100
0000001000000011
0000000100000100
0000001111111010
0000001011111001
1111110100000001
1111110111111101
0000110000000101
0000011011111110
1111110111111110
1111011011111100
1111010111101010
1111100111110100
1111100111110111
1110110111110110
1111101011110110
1111110011110100
1111010100000001
1111110011111111
1111001111110100
1111001011110010
1110110011101011
1111100111110110
1111110111111010
1111110100000011
1111101100000001
1111110000000011
1111011011111011
1111011011111001
1110110111110110
1111110111111010
1111111111111010
1111110000000000
1111111111111111
1111101000000011
1111100000000001
1111100111111111
1111111011111010
1111111011110001
0000000011111101
1111011100000001
1111111011111101
1111100100000011
1111111000000001
1111110011111110
1111111111111110
1111101011110111
1111011111110100
1111111000000000
0000000000000000
1111010100000011
1111101011111111
1111101111110100
1111111011111100
0000001011111000
1111110100000011
0000010011111110
1101010111111101
1101111000000001
1111000111111100
1111101111111010
1111101011111010
1110110111111100
1111011000000011
1111110011110011
0000000100000000
0000001000000000
1111010100000001
1111000000000000
1111100100000011
1111101000000011
1111110100000101
1111111000000101
1111111011111111
1111111100000010
1111010100000001
1101011100000001
1101011100000100
1111011100000001
1111101000000010
1111110100000000
1111111100000001
1111011111111110
1110111100000001
1111000000000011
1111000100000000
1111011011111111
1111110011111101
1111110000000000
1111111000000010
1111101011111100
1111101011111111
1111101000000001
1111100000000000
1111100011111101
1111110111111011
1111011011111101
0000000000000101
1111101000000010
1111101111111101
1111111011111011
1111111111111100
0000100000000000
1111100000000010
1111011011111100
1111101111110110
1111111111111101
1101010100000000
1100110100000000
1110100111111100
1111101111111110
1111101100000100
1111100111110001
1111111111111000
0000000011111101
1111100000000011
1011111100000011
1111101000000110
1111111000000111
1111111000001000
1111010111111011
0000001111111100
1111100111111101
1111001011111110
1110101000000001
1111111000000010
1111110000000001
1111110100000011
1111101000000000
0000001111111100
1111101011111010
1111101011111101
1110000100000001
1101001111111101
1111011011111100
1111100011111111
1111001000000010
1111111100000010
1111101000000001
1111110000000101
1111010100000011
1110101100000001
1110010011111011
1111110011111101
0000000011111101
1111111000000001
1111110100000100
0000000111111110
1111101000000010
1111000011111111
1111110111111101
0000100000000110
1111011011111010
0000101000000000
0000000111111111
1101111011111111
1110000111111111
1111011100000011
1111011011111110
1111010011111101
1111011111111110
1111011011111111
1110001111111110
1111011100000100
1110110100000100
1111011000000010
1111110000000000
1111110111110001
1111110000000111
1111111100000000
1111001000000011
1111111000000100
1111101100000011
1111101100000101
0000000000000001
0000000000000000
1111111111111111
1111111100000011
1111110000000011
1111111100000011
1111101100000011
1111111000000001
1111111111111111
0000000111111110
1111001111111101
1111111111111110
1111111000000101
0000000000000011
1111111100000000
1111111000000001
0000010000000000
0000001000000010
1111101111111101
1111111011111111
1111110000000010
1111111000000000
1111110111111011
1111111011111011
1111110100000100
1111011000000000
0000010011111011
0000100000000100
0000101011111111
0000001111111111
0000001000000011
0000000000000100
1111101000000001
0000000000000001
1111110011111110
0000010000000100
1111110000000001
1111110100001010
1111110100000010
1111110000000001
1111110000000000
1111111100000011
1111111011111111
0000001000000010
1111100111111011
1111101000000010
1111111011111010
1111111111110111
0000001011111110
0000000000000001
1111101011111100
0000000011111110
1111110011111010
1111111111111101
1111101100000000
1111110111111110
1111011111111111
1111100000000100
1111111100000000
1111111000000000
1111001011111111
1111100011111001
1111101100000001
1111100000000010
0000000100000110
0000010100000111
0000001000000101
1111111100000011
1111110000000110
1111110100000000
1111111000000001
1111110100000010
1111111100000010
0000101111111111
0000011111111111
1101100111110100
1110111100000010
1111101111111110
0000001011111001
1111101011111101
1111010111111010
1110100100000000
1111101111111010
1110101111111111
1110110000000100
1111110111111010
1111110111111111
1111011100000011
0000001111111100
1111010111111101
1111101000000101
0000000100000000
1110101000000001
1101001111111111
1111010000000010
1111100000000011
1111111011111111
1111110111111100
0000000000000000
1111111100000110
1111100000000000
1111000100000010
1111101000000010
1111111000000000
0000001011111010
1111111111111010
1111110111111011
0000000000000000
1111100100000101
1111101100000010
1111110000000100
0000000100000011
0000000111111010
0000000011111010
1111110100000000
1111111000000001
1111100100000110
1111110100000001
1111100100000100
0000001000000000
0000001111111101
0000000000000010
0000011100000101
0000011100000001
0000001100000001
1111111111111111
1111111100000010
1111100111111111
1111101000000000
1111111000000000
1111110011111110
1111110111111110
1111101000000111
0000000000000100
1111110011111110
1111101111111111
1111100000000010
1111101100000111
1111101100000101
1111010111111011
1111100100000011
1111100100000100
1111101011111111
1111101100000000
0000000000000100
1111111000000001
0000001011110111
1111001111111100
1111010000000001
1111100111111111
1111100000000000
1111101111111111
0000000111111100
1111111000000100
0000001111110111
1110111111111111
1111011100000110
1111011100000100
1111100100000011
0000000100000000
0000000111111111
0000010100000010
0000000100000000
0000000100001111
1111110000001001
1111101100000110
1111110100000011
0000000000000011
0000000000000101
0001001100000111
0000001100001110